const unsigned char g__content_tiny_conv_quant_from_audio_tflite[][] = {
  0x20, 0x00, 0x00, 0x00, 0x54, 0x46, 0x4c, 0x33, 0x00, 0x00, 0x00, 0x00,
  0x00, 0x00, 0x12, 0x00, 0x1c, 0x00, 0x04, 0x00, 0x08, 0x00, 0x0c, 0x00,
  0x10, 0x00, 0x14, 0x00, 0x00, 0x00, 0x18, 0x00, 0x12, 0x00, 0x00, 0x00,
  0x03, 0x00, 0x00, 0x00, 0x60, 0x4c, 0x00, 0x00, 0x14, 0x42, 0x00, 0x00,
  0xfc, 0x41, 0x00, 0x00, 0x34, 0x00, 0x00, 0x00, 0x04, 0x00, 0x00, 0x00,
  0x01, 0x00, 0x00, 0x00, 0x04, 0x00, 0x00, 0x00, 0x2c, 0xb6, 0xff, 0xff,
  0x08, 0x00, 0x00, 0x00, 0x0b, 0x00, 0x00, 0x00, 0x13, 0x00, 0x00, 0x00,
  0x6d, 0x69, 0x6e, 0x5f, 0x72, 0x75, 0x6e, 0x74, 0x69, 0x6d, 0x65, 0x5f,
  0x76, 0x65, 0x72, 0x73, 0x69, 0x6f, 0x6e, 0x00, 0x0c, 0x00, 0x00, 0x00,
  0xbc, 0x41, 0x00, 0x00, 0x9c, 0x41, 0x00, 0x00, 0x0c, 0x03, 0x00, 0x00,
  0xdc, 0x02, 0x00, 0x00, 0x4c, 0x00, 0x00, 0x00, 0x44, 0x00, 0x00, 0x00,
  0x3c, 0x00, 0x00, 0x00, 0x34, 0x00, 0x00, 0x00, 0x2c, 0x00, 0x00, 0x00,
  0x24, 0x00, 0x00, 0x00, 0x1c, 0x00, 0x00, 0x00, 0x04, 0x00, 0x00, 0x00,
  0xd6, 0xbd, 0xff, 0xff, 0x04, 0x00, 0x00, 0x00, 0x05, 0x00, 0x00, 0x00,
  0x31, 0x2e, 0x35, 0x2e, 0x30, 0x00, 0x00, 0x00, 0x2c, 0xbd, 0xff, 0xff,
  0x30, 0xbd, 0xff, 0xff, 0x34, 0xbd, 0xff, 0xff, 0x38, 0xbd, 0xff, 0xff,
  0x3c, 0xbd, 0xff, 0xff, 0x40, 0xbd, 0xff, 0xff, 0x02, 0xbe, 0xff, 0xff,
  0x04, 0x00, 0x00, 0x00, 0x80, 0x02, 0x00, 0x00, 0x49, 0x51, 0x8f, 0x4d,
  0xe6, 0x0d, 0x12, 0x90, 0x0d, 0xf1, 0x58, 0x5c, 0x07, 0x84, 0x29, 0xa3,
  0xd9, 0xc5, 0x11, 0x03, 0x40, 0x1e, 0x93, 0x9f, 0x41, 0xf9, 0x08, 0x00,
  0x6e, 0x0d, 0xc5, 0xb9, 0xcb, 0x14, 0x05, 0x68, 0x5b, 0xc8, 0xab, 0xcf,
  0x46, 0x18, 0x1c, 0xf1, 0x12, 0xad, 0xd1, 0x23, 0x04, 0x3e, 0xc4, 0xad,
  0x7b, 0xd0, 0xfd, 0x4d, 0x48, 0xe8, 0x9d, 0x2b, 0x00, 0x19, 0x34, 0xe1,
  0xdc, 0x1a, 0xfd, 0xc0, 0x23, 0xd0, 0xd7, 0x2e, 0x20, 0xf0, 0xe5, 0x25,
  0xfd, 0xf6, 0x1c, 0x8d, 0xfc, 0xb7, 0xe8, 0x20, 0x23, 0x08, 0xf3, 0xe2,
  0x4c, 0x34, 0x22, 0xa4, 0x16, 0xed, 0xcc, 0x48, 0x22, 0xc5, 0x4a, 0x56,
  0x72, 0xd7, 0xc2, 0xa3, 0x45, 0x1a, 0xcf, 0xb0, 0x45, 0x9c, 0x40, 0x2e,
  0x08, 0x27, 0xcb, 0x18, 0x2b, 0x49, 0xca, 0x5f, 0x3a, 0x18, 0x64, 0x26,
  0xf3, 0x43, 0xf0, 0x38, 0x08, 0x95, 0xf5, 0xd5, 0x07, 0xc7, 0xc9, 0xd2,
  0xd8, 0x05, 0x08, 0xfe, 0xe9, 0xc2, 0x00, 0x15, 0x02, 0xb8, 0xef, 0xe9,
  0x5a, 0xa7, 0x49, 0xe1, 0xfc, 0x88, 0xf0, 0x05, 0xf5, 0x86, 0xf1, 0x53,
  0x4d, 0xd1, 0xe7, 0xf1, 0x57, 0xc8, 0x2a, 0xac, 0x03, 0x46, 0x79, 0x87,
  0xe6, 0x81, 0x41, 0xa1, 0x44, 0xf1, 0xad, 0x18, 0x79, 0x13, 0x4d, 0x40,
  0x7a, 0xb2, 0x21, 0xf2, 0x11, 0xda, 0x3c, 0x37, 0x14, 0xa2, 0x42, 0x14,
  0xf9, 0x3b, 0x39, 0x04, 0xcd, 0x24, 0x06, 0xf8, 0x08, 0x02, 0xfe, 0xc2,
  0xcd, 0x4e, 0x0d, 0x4b, 0x69, 0x0d, 0xca, 0xd8, 0x32, 0xc7, 0x00, 0xf4,
  0xfc, 0xd4, 0xf6, 0xff, 0xf8, 0xd9, 0xe2, 0x20, 0x64, 0xc2, 0x90, 0x06,
  0x4f, 0x08, 0xcb, 0xf5, 0x19, 0xdb, 0x72, 0x66, 0x4b, 0xab, 0xd4, 0xcc,
  0x41, 0xeb, 0xf8, 0x47, 0x24, 0x68, 0xb9, 0xa3, 0xf8, 0xe3, 0x67, 0xf6,
  0x40, 0x17, 0xfb, 0xe8, 0x16, 0x2c, 0x1d, 0xf0, 0xe4, 0x03, 0xc3, 0xe1,
  0xa6, 0xf2, 0x39, 0xd8, 0xec, 0xc9, 0xe5, 0x3c, 0x21, 0x39, 0x0b, 0xbf,
  0x0e, 0x12, 0xe5, 0x37, 0x1e, 0xf8, 0x3b, 0xcf, 0xf8, 0x8b, 0x03, 0x53,
  0x65, 0x53, 0xbc, 0x16, 0x0a, 0x0d, 0xf3, 0x00, 0x07, 0xd8, 0x2a, 0x48,
  0x13, 0xfe, 0x05, 0xc3, 0x4f, 0x46, 0x1c, 0xeb, 0x32, 0x1f, 0xfa, 0x43,
  0x00, 0x0a, 0x6d, 0x48, 0xe4, 0xc9, 0xfd, 0x1d, 0x0a, 0x40, 0x0f, 0x16,
  0xa3, 0x03, 0xcf, 0xfa, 0x90, 0xac, 0x03, 0xa0, 0xb1, 0xd1, 0xfb, 0xe0,
  0x45, 0x19, 0xcf, 0x04, 0xd6, 0x34, 0x27, 0xe1, 0xe4, 0xf6, 0xd6, 0xcc,
  0xe3, 0xf5, 0xf5, 0xc4, 0x67, 0x2c, 0xe6, 0xed, 0xb8, 0x31, 0x72, 0x4d,
... (file truncated for brevity)
